MEMORY_INITIALIZATION_RADIX=10;
MEMORY_INITIALIZATION_VECTOR=0,
1,
35,
36,
2,
3,
37,
38,
4,
5,
39,
40,
6,
7,
41,
42,
8,
9,
43,
44,
10,
11,
45,
46,
12,
13,
47,
48,
14,
15,
49,
50,
16,
17,
51,
52,
18,
19,
53,
54,
20,
21,
55,
56,
22,
23,
57,
58,
24,
25,
59,
60,
26,
27,
61,
62,
28,
29,
63,
64,
70,
71,
105,
106,
72,
73,
107,
108,
74,
75,
109,
110,
76,
77,
111,
112,
78,
79,
113,
114,
80,
81,
115,
116,
82,
83,
117,
118,
84,
85,
119,
120,
86,
87,
121,
122,
88,
89,
123,
124,
90,
91,
125,
126,
92,
93,
127,
128,
94,
95,
129,
130,
96,
97,
131,
132,
98,
99,
133,
134,
140,
141,
175,
176,
142,
143,
177,
178,
144,
145,
179,
180,
146,
147,
181,
182,
148,
149,
183,
184,
150,
151,
185,
186,
152,
153,
187,
188,
154,
155,
189,
190,
156,
157,
191,
192,
158,
159,
193,
194,
160,
161,
195,
196,
162,
163,
197,
198,
164,
165,
199,
200,
166,
167,
201,
202,
168,
169,
203,
204,
210,
211,
245,
246,
212,
213,
247,
248,
214,
215,
249,
250,
216,
217,
251,
252,
218,
219,
253,
254,
220,
221,
255,
256,
222,
223,
257,
258,
224,
225,
259,
260,
226,
227,
261,
262,
228,
229,
263,
264,
230,
231,
265,
266,
232,
233,
267,
268,
234,
235,
269,
270,
236,
237,
271,
272,
238,
239,
273,
274,
280,
281,
315,
316,
282,
283,
317,
318,
284,
285,
319,
320,
286,
287,
321,
322,
288,
289,
323,
324,
290,
291,
325,
326,
292,
293,
327,
328,
294,
295,
329,
330,
296,
297,
331,
332,
298,
299,
333,
334,
300,
301,
335,
336,
302,
303,
337,
338,
304,
305,
339,
340,
306,
307,
341,
342,
308,
309,
343,
344,
350,
351,
385,
386,
352,
353,
387,
388,
354,
355,
389,
390,
356,
357,
391,
392,
358,
359,
393,
394,
360,
361,
395,
396,
362,
363,
397,
398,
364,
365,
399,
400,
366,
367,
401,
402,
368,
369,
403,
404,
370,
371,
405,
406,
372,
373,
407,
408,
374,
375,
409,
410,
376,
377,
411,
412,
378,
379,
413,
414,
420,
421,
455,
456,
422,
423,
457,
458,
424,
425,
459,
460,
426,
427,
461,
462,
428,
429,
463,
464,
430,
431,
465,
466,
432,
433,
467,
468,
434,
435,
469,
470,
436,
437,
471,
472,
438,
439,
473,
474,
440,
441,
475,
476,
442,
443,
477,
478,
444,
445,
479,
480,
446,
447,
481,
482,
448,
449,
483,
484,
490,
491,
525,
526,
492,
493,
527,
528,
494,
495,
529,
530,
496,
497,
531,
532,
498,
499,
533,
534,
500,
501,
535,
536,
502,
503,
537,
538,
504,
505,
539,
540,
506,
507,
541,
542,
508,
509,
543,
544,
510,
511,
545,
546,
512,
513,
547,
548,
514,
515,
549,
550,
516,
517,
551,
552,
518,
519,
553,
554,
560,
561,
595,
596,
562,
563,
597,
598,
564,
565,
599,
600,
566,
567,
601,
602,
568,
569,
603,
604,
570,
571,
605,
606,
572,
573,
607,
608,
574,
575,
609,
610,
576,
577,
611,
612,
578,
579,
613,
614,
580,
581,
615,
616,
582,
583,
617,
618,
584,
585,
619,
620,
586,
587,
621,
622,
588,
589,
623,
624,
630,
631,
665,
666,
632,
633,
667,
668,
634,
635,
669,
670,
636,
637,
671,
672,
638,
639,
673,
674,
640,
641,
675,
676,
642,
643,
677,
678,
644,
645,
679,
680,
646,
647,
681,
682,
648,
649,
683,
684,
650,
651,
685,
686,
652,
653,
687,
688,
654,
655,
689,
690,
656,
657,
691,
692,
658,
659,
693,
694,
700,
701,
735,
736,
702,
703,
737,
738,
704,
705,
739,
740,
706,
707,
741,
742,
708,
709,
743,
744,
710,
711,
745,
746,
712,
713,
747,
748,
714,
715,
749,
750,
716,
717,
751,
752,
718,
719,
753,
754,
720,
721,
755,
756,
722,
723,
757,
758,
724,
725,
759,
760,
726,
727,
761,
762,
728,
729,
763,
764,
770,
771,
805,
806,
772,
773,
807,
808,
774,
775,
809,
810,
776,
777,
811,
812,
778,
779,
813,
814,
780,
781,
815,
816,
782,
783,
817,
818,
784,
785,
819,
820,
786,
787,
821,
822,
788,
789,
823,
824,
790,
791,
825,
826,
792,
793,
827,
828,
794,
795,
829,
830,
796,
797,
831,
832,
798,
799,
833,
834,
840,
841,
875,
876,
842,
843,
877,
878,
844,
845,
879,
880,
846,
847,
881,
882,
848,
849,
883,
884,
850,
851,
885,
886,
852,
853,
887,
888,
854,
855,
889,
890,
856,
857,
891,
892,
858,
859,
893,
894,
860,
861,
895,
896,
862,
863,
897,
898,
864,
865,
899,
900,
866,
867,
901,
902,
868,
869,
903,
904,
910,
911,
945,
946,
912,
913,
947,
948,
914,
915,
949,
950,
916,
917,
951,
952,
918,
919,
953,
954,
920,
921,
955,
956,
922,
923,
957,
958,
924,
925,
959,
960,
926,
927,
961,
962,
928,
929,
963,
964,
930,
931,
965,
966,
932,
933,
967,
968,
934,
935,
969,
970,
936,
937,
971,
972,
938,
939,
973,
974,
980,
981,
1015,
1016,
982,
983,
1017,
1018,
984,
985,
1019,
1020,
986,
987,
1021,
1022,
988,
989,
1023,
1024,
990,
991,
1025,
1026,
992,
993,
1027,
1028,
994,
995,
1029,
1030,
996,
997,
1031,
1032,
998,
999,
1033,
1034,
1000,
1001,
1035,
1036,
1002,
1003,
1037,
1038,
1004,
1005,
1039,
1040,
1006,
1007,
1041,
1042,
1008,
1009,
1043,
1044;