MEMORY_INITIALIZATION_RADIX=16;
MEMORY_INITIALIZATION_VECTOR=000008000000080000000800000008000000080000000800000008000000080000000800000008000000080000000800000000000810000008100000081000000810000008100000081000000810000008100000081000000810000008100000081000000000082000000820000008200000082000000820000008200000082000000820000008200000082000000820000008200000000008300000083000000830000008300000083000000830000008300000083000000830000008300000083000000830000000000840000008400000084000000840000008400000084000000840000008400000084000000840000008400000084000000000085000000850000008500000085000000850000008500000085000000850000008500000085000000850000008500000,000000000000000000000000000000000000000000000000000000000000000000000000000000000000000000000000000000000000000000000000000000000000000000000000000000000000000000000000000000000000000000000000000000000000000000000000000000000000000000000000000000000000000000000000000000000000000000000000000000000000000000000000000000000000000000000000000000000000000000000000000000000000000000000000000000000000000000000000000000000000000000000000000000000000000000000000000000000000000000000000000000000000000000000000000000000000000000000000000000000000000000000000000000000000000000000000001000100010001000100010;
